#ifndef __torch_model__
#define __torch_model__

unsigned int size_torch_model = 4212;
unsigned char torch_model[] __attribute__((aligned(16))) = {
	0x49, 0x44, 0x50, 0x32, 0x08, 0x00, 0x00, 0x00, 0x00, 0x02, 0x00, 0x00, 0x00, 0x02, 0x00, 0x00, 
	0xcc, 0x01, 0x00, 0x00, 0x01, 0x00, 0x00, 0x00, 0x69, 0x00, 0x00, 0x00, 0x6a, 0x00, 0x00, 0x00, 
	0x62, 0x00, 0x00, 0x00, 0xf9, 0x01, 0x00, 0x00, 0x01, 0x00, 0x00, 0x00, 0x44, 0x00, 0x00, 0x00, 
	0x84, 0x00, 0x00, 0x00, 0x2c, 0x02, 0x00, 0x00, 0xc4, 0x06, 0x00, 0x00, 0x90, 0x08, 0x00, 0x00, 
	0x74, 0x10, 0x00, 0x00, 0x74, 0x6f, 0x72, 0x63, 0x68, 0x32, 0x2e, 0x70, 0x63, 0x78, 0x00, 0x00, 
	0x00, 0x00, 0x00, 0x00, 0x00, 0x00, 0x00, 0x00, 0x00, 0x00, 0x00, 0x00, 0x00, 0x00, 0x00, 0x00, 
	0x00, 0x00, 0x00, 0x00, 0x00, 0x00, 0x00, 0x00, 0x00, 0x00, 0x00, 0x00, 0x00, 0x00, 0x00, 0x00, 
	0x00, 0x00, 0x00, 0x00, 0x00, 0x00, 0x00, 0x00, 0x00, 0x00, 0x00, 0x00, 0x00, 0x00, 0x00, 0x00, 
	0x00, 0x00, 0x00, 0x00, 0x3a, 0x01, 0x8a, 0x01, 0x2d, 0x01, 0x70, 0x01, 0x27, 0x01, 0x80, 0x01, 
	0x42, 0x01, 0x5d, 0x01, 0x2a, 0x01, 0x4b, 0x01, 0x2d, 0x01, 0x5e, 0x01, 0x2b, 0x01, 0x9d, 0x01, 
	0x1d, 0x01, 0x8e, 0x01, 0x01, 0x01, 0xb1, 0x01, 0x0f, 0x01, 0x97, 0x01, 0xfe, 0x00, 0x9c, 0x01, 
	0xd5, 0x00, 0xaa, 0x01, 0xec, 0x00, 0x9b, 0x01, 0xda, 0x00, 0x96, 0x01, 0x18, 0x01, 0xaa, 0x01, 
	0x41, 0x01, 0x74, 0x01, 0xea, 0x00, 0xb0, 0x01, 0xcc, 0x01, 0xf5, 0x01, 0x81, 0x01, 0xd3, 0x01, 
	0xa0, 0x01, 0xf3, 0x01, 0x08, 0x01, 0xf1, 0x01, 0x33, 0x01, 0xe5, 0x01, 0xee, 0x01, 0xa9, 0x01, 
	0xa3, 0x01, 0x88, 0x01, 0x82, 0x01, 0xa6, 0x01, 0xd0, 0x01, 0x89, 0x01, 0x7c, 0x01, 0xec, 0x00, 
	0x44, 0x01, 0x01, 0x01, 0x64, 0x01, 0x02, 0x01, 0x66, 0x01, 0xb3, 0x00, 0x7c, 0x01, 0xcb, 0x00, 
	0x2e, 0x01, 0xc9, 0x00, 0x2d, 0x01, 0xea, 0x00, 0x45, 0x01, 0xb3, 0x00, 0xdb, 0x00, 0xef, 0x01, 
	0xb2, 0x00, 0xde, 0x01, 0x3d, 0x01, 0x48, 0x01, 0x82, 0x01, 0x52, 0x01, 0x73, 0x01, 0x27, 0x01, 
	0x81, 0x01, 0x7e, 0x01, 0x73, 0x01, 0xa9, 0x01, 0x3a, 0x01, 0x8a, 0x01, 0x58, 0x01, 0xcc, 0x01, 
	0x31, 0x00, 0xf5, 0x01, 0x43, 0x00, 0x0b, 0x00, 0x31, 0x00, 0x0b, 0x00, 0x55, 0x00, 0xf5, 0x01, 
	0x67, 0x00, 0x0b, 0x00, 0x55, 0x00, 0x0b, 0x00, 0x1f, 0x00, 0xf5, 0x01, 0x1e, 0x00, 0x0b, 0x00, 
	0x8b, 0x00, 0xf4, 0x01, 0x9d, 0x00, 0x0b, 0x00, 0x8b, 0x00, 0x0b, 0x00, 0x67, 0x00, 0xf4, 0x01, 
	0x79, 0x00, 0x0b, 0x00, 0x0d, 0x00, 0xf5, 0x01, 0x0c, 0x00, 0x0b, 0x00, 0x43, 0x00, 0xf5, 0x01, 
	0x79, 0x00, 0xf4, 0x01, 0xf3, 0x01, 0xc1, 0x00, 0x91, 0x01, 0xed, 0x00, 0x91, 0x01, 0xc1, 0x00, 
	0xf3, 0x01, 0x18, 0x01, 0x91, 0x01, 0x44, 0x01, 0x91, 0x01, 0x18, 0x01, 0xf3, 0x01, 0x95, 0x00, 
	0x91, 0x01, 0x95, 0x00, 0xf3, 0x01, 0x3d, 0x00, 0x91, 0x01, 0x69, 0x00, 0x91, 0x01, 0x3d, 0x00, 
	0xf3, 0x01, 0x44, 0x01, 0x91, 0x01, 0x70, 0x01, 0xf3, 0x01, 0x69, 0x00, 0xf3, 0x01, 0xed, 0x00, 
	0xf3, 0x01, 0x11, 0x00, 0x91, 0x01, 0x11, 0x00, 0x36, 0x01, 0x08, 0x00, 0x62, 0x01, 0x08, 0x00, 
	0x17, 0x01, 0x27, 0x00, 0x81, 0x01, 0x53, 0x00, 0x36, 0x01, 0x72, 0x00, 0x17, 0x01, 0x53, 0x00, 
	0x62, 0x01, 0x72, 0x00, 0x81, 0x01, 0x27, 0x00, 0xee, 0x00, 0x91, 0x00, 0xb3, 0x00, 0xa4, 0x00, 
	0xd2, 0x00, 0xc8, 0x00, 0x27, 0x01, 0xad, 0x00, 0x2a, 0x01, 0x7d, 0x00, 0x02, 0x01, 0xcc, 0x00, 
	0x0d, 0x01, 0xe0, 0x00, 0xda, 0x00, 0xd8, 0x00, 0xec, 0x00, 0x19, 0x01, 0xb5, 0x00, 0x74, 0x00, 
	0x0a, 0x01, 0x59, 0x00, 0xae, 0x00, 0xf5, 0x00, 0xdb, 0x00, 0x55, 0x00, 0xcb, 0x00, 0x52, 0x01, 
	0xfe, 0x00, 0x5a, 0x01, 0x2a, 0x01, 0x3c, 0x01, 0xab, 0x00, 0x2a, 0x01, 0x2d, 0x01, 0x08, 0x01, 
	0xed, 0x01, 0xd6, 0x01, 0x9e, 0x00, 0xf4, 0x01, 0xf3, 0x01, 0x70, 0x01, 0x00, 0x00, 0x02, 0x00, 
	0x01, 0x00, 0x00, 0x00, 0x01, 0x00, 0x02, 0x00, 0x03, 0x00, 0x05, 0x00, 0x04, 0x00, 0x03, 0x00, 
	0x04, 0x00, 0x05, 0x00, 0x06, 0x00, 0x01, 0x00, 0x07, 0x00, 0x06, 0x00, 0x02, 0x00, 0x07, 0x00, 
	0x08, 0x00, 0x0a, 0x00, 0x09, 0x00, 0x08, 0x00, 0x09, 0x00, 0x0a, 0x00, 0x0b, 0x00, 0x0d, 0x00, 
	0x0c, 0x00, 0x0b, 0x00, 0x0c, 0x00, 0x0d, 0x00, 0x0e, 0x00, 0x07, 0x00, 0x0a, 0x00, 0x0e, 0x00, 
	0x07, 0x00, 0x09, 0x00, 0x0f, 0x00, 0x04, 0x00, 0x02, 0x00, 0x0f, 0x00, 0x05, 0x00, 0x01, 0x00, 
	0x10, 0x00, 0x09, 0x00, 0x0d, 0x00, 0x10, 0x00, 0x0a, 0x00, 0x0c, 0x00, 0x11, 0x00, 0x13, 0x00, 
	0x12, 0x00, 0x11, 0x00, 0x12, 0x00, 0x13, 0x00, 0x0e, 0x00, 0x15, 0x00, 0x14, 0x00, 0x0e, 0x00, 
	0x14, 0x00, 0x15, 0x00, 0x13, 0x00, 0x17, 0x00, 0x16, 0x00, 0x12, 0x00, 0x16, 0x00, 0x17, 0x00, 
	0x13, 0x00, 0x16, 0x00, 0x18, 0x00, 0x12, 0x00, 0x17, 0x00, 0x18, 0x00, 0x16, 0x00, 0x17, 0x00, 
	0x19, 0x00, 0x17, 0x00, 0x16, 0x00, 0x19, 0x00, 0x1a, 0x00, 0x1c, 0x00, 0x1b, 0x00, 0x1a, 0x00, 
	0x1b, 0x00, 0x1c, 0x00, 0x1d, 0x00, 0x1c, 0x00, 0x1a, 0x00, 0x1d, 0x00, 0x1b, 0x00, 0x1a, 0x00, 
	0x1a, 0x00, 0x1e, 0x00, 0x1d, 0x00, 0x1a, 0x00, 0x1e, 0x00, 0x1d, 0x00, 0x1c, 0x00, 0x20, 0x00, 
	0x1f, 0x00, 0x1b, 0x00, 0x1f, 0x00, 0x20, 0x00, 0x20, 0x00, 0x1d, 0x00, 0x21, 0x00, 0x1f, 0x00, 
	0x1d, 0x00, 0x21, 0x00, 0x08, 0x00, 0x22, 0x00, 0x15, 0x00, 0x08, 0x00, 0x22, 0x00, 0x14, 0x00, 
	0x10, 0x00, 0x23, 0x00, 0x22, 0x00, 0x10, 0x00, 0x23, 0x00, 0x22, 0x00, 0x24, 0x00, 0x26, 0x00, 
	0x25, 0x00, 0x24, 0x00, 0x25, 0x00, 0x26, 0x00, 0x03, 0x00, 0x27, 0x00, 0x26, 0x00, 0x03, 0x00, 
	0x27, 0x00, 0x25, 0x00, 0x0f, 0x00, 0x28, 0x00, 0x27, 0x00, 0x0f, 0x00, 0x28, 0x00, 0x27, 0x00, 
	0x00, 0x00, 0x29, 0x00, 0x28, 0x00, 0x29, 0x00, 0x2a, 0x00, 0x28, 0x00, 0x06, 0x00, 0x14, 0x00, 
	0x29, 0x00, 0x06, 0x00, 0x15, 0x00, 0x2a, 0x00, 0x2a, 0x00, 0x2c, 0x00, 0x2b, 0x00, 0x2b, 0x00, 
	0x2c, 0x00, 0x2d, 0x00, 0x2d, 0x00, 0x2f, 0x00, 0x2e, 0x00, 0x2e, 0x00, 0x2f, 0x00, 0x30, 0x00, 
	0x30, 0x00, 0x2b, 0x00, 0x31, 0x00, 0x31, 0x00, 0x2d, 0x00, 0x32, 0x00, 0x32, 0x00, 0x34, 0x00, 
	0x33, 0x00, 0x33, 0x00, 0x34, 0x00, 0x35, 0x00, 0x35, 0x00, 0x36, 0x00, 0x2f, 0x00, 0x36, 0x00, 
	0x37, 0x00, 0x2f, 0x00, 0x37, 0x00, 0x31, 0x00, 0x38, 0x00, 0x38, 0x00, 0x32, 0x00, 0x39, 0x00, 
	0x39, 0x00, 0x2e, 0x00, 0x2c, 0x00, 0x3a, 0x00, 0x30, 0x00, 0x2c, 0x00, 0x3a, 0x00, 0x33, 0x00, 
	0x36, 0x00, 0x3b, 0x00, 0x35, 0x00, 0x37, 0x00, 0x3b, 0x00, 0x3d, 0x00, 0x3c, 0x00, 0x3c, 0x00, 
	0x3d, 0x00, 0x3e, 0x00, 0x3e, 0x00, 0x40, 0x00, 0x3f, 0x00, 0x3f, 0x00, 0x40, 0x00, 0x41, 0x00, 
	0x41, 0x00, 0x3c, 0x00, 0x42, 0x00, 0x42, 0x00, 0x3e, 0x00, 0x43, 0x00, 0x43, 0x00, 0x45, 0x00, 
	0x44, 0x00, 0x44, 0x00, 0x45, 0x00, 0x46, 0x00, 0x46, 0x00, 0x47, 0x00, 0x40, 0x00, 0x47, 0x00, 
	0x48, 0x00, 0x40, 0x00, 0x48, 0x00, 0x42, 0x00, 0x45, 0x00, 0x49, 0x00, 0x43, 0x00, 0x45, 0x00, 
	0x49, 0x00, 0x3f, 0x00, 0x3d, 0x00, 0x4a, 0x00, 0x41, 0x00, 0x3d, 0x00, 0x4a, 0x00, 0x44, 0x00, 
	0x4b, 0x00, 0x4b, 0x00, 0x46, 0x00, 0x4c, 0x00, 0x4c, 0x00, 0x4e, 0x00, 0x4d, 0x00, 0x4d, 0x00, 
	0x4e, 0x00, 0x4f, 0x00, 0x4d, 0x00, 0x50, 0x00, 0x4f, 0x00, 0x4f, 0x00, 0x50, 0x00, 0x51, 0x00, 
	0x4d, 0x00, 0x4f, 0x00, 0x51, 0x00, 0x4f, 0x00, 0x51, 0x00, 0x52, 0x00, 0x4f, 0x00, 0x50, 0x00, 
	0x52, 0x00, 0x51, 0x00, 0x50, 0x00, 0x53, 0x00, 0x50, 0x00, 0x4e, 0x00, 0x53, 0x00, 0x50, 0x00, 
	0x4e, 0x00, 0x54, 0x00, 0x54, 0x00, 0x56, 0x00, 0x55, 0x00, 0x55, 0x00, 0x56, 0x00, 0x57, 0x00, 
	0x54, 0x00, 0x58, 0x00, 0x57, 0x00, 0x55, 0x00, 0x58, 0x00, 0x59, 0x00, 0x54, 0x00, 0x59, 0x00, 
	0x58, 0x00, 0x55, 0x00, 0x5a, 0x00, 0x58, 0x00, 0x5a, 0x00, 0x5c, 0x00, 0x5b, 0x00, 0x5b, 0x00, 
	0x5c, 0x00, 0x5d, 0x00, 0x54, 0x00, 0x5d, 0x00, 0x56, 0x00, 0x55, 0x00, 0x5e, 0x00, 0x56, 0x00, 
	0x54, 0x00, 0x57, 0x00, 0x5e, 0x00, 0x55, 0x00, 0x59, 0x00, 0x5f, 0x00, 0x54, 0x00, 0x55, 0x00, 
	0x59, 0x00, 0x55, 0x00, 0x57, 0x00, 0x5a, 0x00, 0x5c, 0x00, 0x5f, 0x00, 0x5b, 0x00, 0x5c, 0x00, 
	0x60, 0x00, 0x5d, 0x00, 0x54, 0x00, 0x60, 0x00, 0x5d, 0x00, 0x55, 0x00, 0x61, 0x00, 0x5e, 0x00, 
	0x61, 0x00, 0x62, 0x00, 0x5b, 0x00, 0x62, 0x00, 0x63, 0x00, 0x5d, 0x00, 0x62, 0x00, 0x63, 0x00, 
	0x5b, 0x00, 0x63, 0x00, 0x64, 0x00, 0x5d, 0x00, 0x5f, 0x00, 0x64, 0x00, 0x5b, 0x00, 0x60, 0x00, 
	0x65, 0x00, 0x5d, 0x00, 0x54, 0x00, 0x5e, 0x00, 0x60, 0x00, 0x55, 0x00, 0x5f, 0x00, 0x61, 0x00, 
	0x63, 0x00, 0x65, 0x00, 0x5b, 0x00, 0x64, 0x00, 0x66, 0x00, 0x5d, 0x00, 0x65, 0x00, 0x5a, 0x00, 
	0x5b, 0x00, 0x66, 0x00, 0x5b, 0x00, 0x5d, 0x00, 0x64, 0x00, 0x61, 0x00, 0x5b, 0x00, 0x65, 0x00, 
	0x62, 0x00, 0x5d, 0x00, 0x00, 0x00, 0x0f, 0x00, 0x02, 0x00, 0x29, 0x00, 0x0f, 0x00, 0x01, 0x00, 
	0x03, 0x00, 0x24, 0x00, 0x05, 0x00, 0x03, 0x00, 0x24, 0x00, 0x04, 0x00, 0x06, 0x00, 0x00, 0x00, 
	0x01, 0x00, 0x06, 0x00, 0x29, 0x00, 0x02, 0x00, 0x08, 0x00, 0x0e, 0x00, 0x0a, 0x00, 0x08, 0x00, 
	0x0e, 0x00, 0x09, 0x00, 0x0b, 0x00, 0x10, 0x00, 0x0d, 0x00, 0x0b, 0x00, 0x10, 0x00, 0x0c, 0x00, 
	0x0e, 0x00, 0x06, 0x00, 0x07, 0x00, 0x0e, 0x00, 0x06, 0x00, 0x07, 0x00, 0x0f, 0x00, 0x03, 0x00, 
	0x04, 0x00, 0x0f, 0x00, 0x03, 0x00, 0x05, 0x00, 0x10, 0x00, 0x08, 0x00, 0x09, 0x00, 0x10, 0x00, 
	0x08, 0x00, 0x0a, 0x00, 0x11, 0x00, 0x66, 0x00, 0x13, 0x00, 0x11, 0x00, 0x67, 0x00, 0x12, 0x00, 
	0x0e, 0x00, 0x08, 0x00, 0x15, 0x00, 0x0e, 0x00, 0x08, 0x00, 0x14, 0x00, 0x13, 0x00, 0x66, 0x00, 
	0x17, 0x00, 0x12, 0x00, 0x67, 0x00, 0x16, 0x00, 0x1d, 0x00, 0x20, 0x00, 0x1c, 0x00, 0x1d, 0x00, 
	0x1f, 0x00, 0x1b, 0x00, 0x08, 0x00, 0x10, 0x00, 0x22, 0x00, 0x08, 0x00, 0x10, 0x00, 0x22, 0x00, 
	0x10, 0x00, 0x0b, 0x00, 0x23, 0x00, 0x10, 0x00, 0x0b, 0x00, 0x23, 0x00, 0x24, 0x00, 0x03, 0x00, 
	0x26, 0x00, 0x24, 0x00, 0x03, 0x00, 0x25, 0x00, 0x03, 0x00, 0x0f, 0x00, 0x27, 0x00, 0x03, 0x00, 
	0x0f, 0x00, 0x27, 0x00, 0x0f, 0x00, 0x00, 0x00, 0x28, 0x00, 0x0f, 0x00, 0x29, 0x00, 0x28, 0x00, 
	0x00, 0x00, 0x06, 0x00, 0x29, 0x00, 0x29, 0x00, 0x06, 0x00, 0x2a, 0x00, 0x06, 0x00, 0x0e, 0x00, 
	0x14, 0x00, 0x06, 0x00, 0x0e, 0x00, 0x15, 0x00, 0x2a, 0x00, 0x39, 0x00, 0x2c, 0x00, 0x2b, 0x00, 
	0x3a, 0x00, 0x2c, 0x00, 0x2d, 0x00, 0x35, 0x00, 0x2f, 0x00, 0x2e, 0x00, 0x36, 0x00, 0x2f, 0x00, 
	0x30, 0x00, 0x2a, 0x00, 0x2b, 0x00, 0x31, 0x00, 0x2b, 0x00, 0x2d, 0x00, 0x32, 0x00, 0x67, 0x00, 
	0x34, 0x00, 0x33, 0x00, 0x68, 0x00, 0x34, 0x00, 0x35, 0x00, 0x3a, 0x00, 0x36, 0x00, 0x36, 0x00, 
	0x3b, 0x00, 0x37, 0x00, 0x37, 0x00, 0x30, 0x00, 0x31, 0x00, 0x38, 0x00, 0x31, 0x00, 0x32, 0x00, 
	0x39, 0x00, 0x2d, 0x00, 0x2e, 0x00, 0x3a, 0x00, 0x2e, 0x00, 0x30, 0x00, 0x3a, 0x00, 0x32, 0x00, 
	0x33, 0x00, 0x3b, 0x00, 0x33, 0x00, 0x35, 0x00, 0x3b, 0x00, 0x49, 0x00, 0x3d, 0x00, 0x3c, 0x00, 
	0x4a, 0x00, 0x3d, 0x00, 0x3e, 0x00, 0x46, 0x00, 0x40, 0x00, 0x3f, 0x00, 0x47, 0x00, 0x40, 0x00, 
	0x41, 0x00, 0x3b, 0x00, 0x3c, 0x00, 0x42, 0x00, 0x3c, 0x00, 0x3e, 0x00, 0x43, 0x00, 0x48, 0x00, 
	0x45, 0x00, 0x44, 0x00, 0x49, 0x00, 0x45, 0x00, 0x46, 0x00, 0x68, 0x00, 0x47, 0x00, 0x47, 0x00, 
	0x69, 0x00, 0x48, 0x00, 0x48, 0x00, 0x41, 0x00, 0x42, 0x00, 0x49, 0x00, 0x42, 0x00, 0x43, 0x00, 
	0x49, 0x00, 0x3e, 0x00, 0x3f, 0x00, 0x4a, 0x00, 0x3f, 0x00, 0x41, 0x00, 0x4a, 0x00, 0x43, 0x00, 
	0x44, 0x00, 0x4b, 0x00, 0x44, 0x00, 0x46, 0x00, 0x4d, 0x00, 0x4e, 0x00, 0x50, 0x00, 0x4f, 0x00, 
	0x4e, 0x00, 0x50, 0x00, 0xd0, 0x31, 0xb1, 0x3d, 0xcc, 0x31, 0xb1, 0x3d, 0x25, 0x5a, 0x42, 0x3e, 
	0x97, 0x80, 0x30, 0xc1, 0x96, 0x80, 0x30, 0xc1, 0xf6, 0x34, 0x44, 0xbe, 0x53, 0x48, 0x4f, 0x52, 
	0x54, 0x5f, 0x46, 0x49, 0x52, 0x45, 0x31, 0x30, 0x30, 0x30, 0x00, 0x00, 0x5e, 0x7f, 0x19, 0x8e, 
	0x5e, 0x7f, 0x24, 0x8f, 0x67, 0x98, 0x24, 0x12, 0x7f, 0xa1, 0x19, 0x21, 0x7f, 0xa1, 0x24, 0x20, 
	0x98, 0x98, 0x24, 0x2c, 0x67, 0x67, 0x19, 0x7d, 0x67, 0x67, 0x24, 0x77, 0x98, 0x67, 0x19, 0x8c, 
	0x98, 0x67, 0x24, 0x36, 0x7f, 0x5e, 0x24, 0x68, 0x98, 0x98, 0x19, 0x2e, 0x98, 0x98, 0x24, 0x33, 
	0xa1, 0x7f, 0x24, 0x34, 0x7f, 0x5e, 0x19, 0x6b, 0x67, 0x98, 0x19, 0x15, 0xa1, 0x7f, 0x19, 0x39, 
	0xba, 0x45, 0x00, 0x54, 0x7f, 0x2d, 0x00, 0x54, 0x45, 0x45, 0x00, 0x54, 0x7f, 0x2d, 0x00, 0x82, 
	0xba, 0x45, 0x00, 0x8a, 0x45, 0xba, 0x00, 0x54, 0xba, 0xba, 0x00, 0x54, 0x2d, 0x7f, 0x00, 0x54, 
	0x7f, 0xd2, 0x00, 0x54, 0x98, 0x67, 0x24, 0x05, 0xa1, 0x7f, 0x24, 0x05, 0x98, 0x98, 0x24, 0x05, 
	0x67, 0x67, 0x24, 0x05, 0x7f, 0x5e, 0x24, 0x05, 0x7f, 0xa1, 0x24, 0x05, 0x67, 0x98, 0x24, 0x05, 
	0x5e, 0x7f, 0x24, 0x05, 0xd2, 0x7f, 0x00, 0x3b, 0xba, 0xba, 0x00, 0x30, 0x98, 0x98, 0x19, 0x23, 
	0xba, 0xba, 0x00, 0x2d, 0x7f, 0xd2, 0x00, 0x08, 0x45, 0xba, 0x00, 0x18, 0x2d, 0x7f, 0x00, 0x0f, 
	0x45, 0x45, 0x00, 0x80, 0x64, 0x80, 0x1c, 0x8f, 0x64, 0x80, 0xdd, 0x8f, 0x6c, 0x93, 0xdd, 0x12, 
	0x7f, 0x9b, 0x1c, 0x20, 0x7f, 0x9b, 0xdd, 0x20, 0x93, 0x93, 0xdd, 0x2c, 0x6c, 0x6c, 0x1c, 0x74, 
	0x6c, 0x6c, 0xdd, 0x77, 0x93, 0x6c, 0x1c, 0x70, 0x93, 0x6c, 0xdd, 0x36, 0x7f, 0x64, 0xdd, 0x70, 
	0x93, 0x93, 0x1c, 0x29, 0x9b, 0x80, 0xdd, 0x34, 0x7f, 0x64, 0x1c, 0x77, 0x7f, 0x64, 0xdd, 0x77, 
	0x6c, 0x93, 0x1c, 0x1b, 0x9b, 0x80, 0x1c, 0x34, 0x5d, 0x7f, 0xc0, 0x8f, 0x5d, 0x7f, 0xdc, 0x8f, 
	0x67, 0x98, 0xdc, 0x12, 0x7f, 0xa2, 0xc0, 0x20, 0x7f, 0xa2, 0xdc, 0x20, 0x98, 0x98, 0xdc, 0x2c, 
	0x67, 0x67, 0xc0, 0x74, 0x67, 0x67, 0xdc, 0x77, 0x98, 0x67, 0xc0, 0x70, 0x98, 0x67, 0xdc, 0x36, 
	0x7f, 0x5d, 0xdc, 0x68, 0x98, 0x98, 0xc0, 0x29, 0xa2, 0x7f, 0xdc, 0x33, 0x7f, 0x5d, 0xc0, 0x68, 
	0x67, 0x98, 0xc0, 0x1b, 0xa2, 0x7f, 0xc0, 0x37, 0xa2, 0x7f, 0xdc, 0x37, 0x7f, 0x5d, 0xc0, 0x54, 
	0x67, 0x67, 0xc0, 0x54, 0x98, 0x67, 0xc0, 0x54, 0x67, 0x98, 0xc0, 0x54, 0x98, 0x98, 0xc0, 0x54, 
	0x5d, 0x7f, 0xc0, 0x54, 0x7f, 0xa2, 0xc0, 0x54, 0xa2, 0x7f, 0xc0, 0x54, 0x80, 0x7f, 0xdc, 0x05, 
	0x7f, 0x00, 0xff, 0x09, 0xda, 0x25, 0xff, 0x01, 0x25, 0xda, 0xff, 0x85, 0x00, 0x7f, 0xff, 0x0b, 
	0x25, 0x25, 0xff, 0x0d, 0x7f, 0x00, 0xff, 0x5b, 0x7f, 0x7f, 0xca, 0x54, 0xda, 0x25, 0xff, 0x66, 
	0xff, 0x80, 0xff, 0x00, 0x7f, 0xff, 0xff, 0x89, 0xff, 0x80, 0xff, 0x41, 0xda, 0xda, 0xff, 0x7f, 
	0x7f, 0xff, 0xff, 0x4d, 0x25, 0xda, 0xff, 0x9d, 0x00, 0x7f, 0xff, 0x9a, 0xda, 0xda, 0xff, 0x4b, 
	0x25, 0x25, 0xff, 0xa0, 0xd2, 0x7f, 0x00, 0x54, 0x7f, 0x64, 0x1c, 0x70, 0xa2, 0x7f, 0xc0, 0x33, 
	0xfd, 0xff, 0xff, 0xff, 0x00, 0x40, 0x1d, 0x3f, 0x00, 0x40, 0x45, 0x3f, 0x00, 0x00, 0x00, 0x00, 
	0x00, 0xc0, 0x16, 0x3f, 0x00, 0x40, 0x38, 0x3f, 0x02, 0x00, 0x00, 0x00, 0x00, 0xc0, 0x13, 0x3f, 
	0x00, 0x40, 0x40, 0x3f, 0x01, 0x00, 0x00, 0x00, 0xf8, 0xff, 0xff, 0xff, 0x00, 0x40, 0x21, 0x3f, 
	0x00, 0xc0, 0x2e, 0x3f, 0x03, 0x00, 0x00, 0x00, 0x00, 0x40, 0x15, 0x3f, 0x00, 0xc0, 0x25, 0x3f, 
	0x05, 0x00, 0x00, 0x00, 0x00, 0xc0, 0x16, 0x3f, 0x00, 0x40, 0x2f, 0x3f, 0x04, 0x00, 0x00, 0x00, 
	0x00, 0xc0, 0x20, 0x3f, 0x00, 0x40, 0x3a, 0x3f, 0x0f, 0x00, 0x00, 0x00, 0x00, 0xc0, 0x40, 0x3f, 
	0x00, 0x40, 0x3f, 0x3f, 0x27, 0x00, 0x00, 0x00, 0x00, 0x40, 0x41, 0x3f, 0x00, 0x40, 0x29, 0x3f, 
	0x26, 0x00, 0x00, 0x00, 0x00, 0xc0, 0x1e, 0x3f, 0x00, 0x40, 0x24, 0x3f, 0x24, 0x00, 0x00, 0x00, 
	0x00, 0x40, 0x15, 0x3f, 0x00, 0xc0, 0x25, 0x3f, 0x05, 0x00, 0x00, 0x00, 0xf8, 0xff, 0xff, 0xff, 
	0x00, 0xc0, 0x15, 0x3f, 0x00, 0xc0, 0x4e, 0x3f, 0x06, 0x00, 0x00, 0x00, 0x00, 0xc0, 0x13, 0x3f, 
	0x00, 0x40, 0x40, 0x3f, 0x01, 0x00, 0x00, 0x00, 0x00, 0xc0, 0x0e, 0x3f, 0x00, 0x40, 0x47, 0x3f, 
	0x07, 0x00, 0x00, 0x00, 0x00, 0x40, 0x0c, 0x3f, 0x00, 0x40, 0x55, 0x3f, 0x0e, 0x00, 0x00, 0x00, 
	0x00, 0xc0, 0x19, 0x3f, 0x00, 0xc0, 0x72, 0x3f, 0x14, 0x00, 0x00, 0x00, 0x00, 0x40, 0x2c, 0x3f, 
	0x00, 0x40, 0x66, 0x3f, 0x29, 0x00, 0x00, 0x00, 0x00, 0x40, 0x1d, 0x3f, 0x00, 0x40, 0x45, 0x3f, 
	0x00, 0x00, 0x00, 0x00, 0x00, 0xc0, 0x13, 0x3f, 0x00, 0x40, 0x40, 0x3f, 0x01, 0x00, 0x00, 0x00, 
	0xf8, 0xff, 0xff, 0xff, 0x00, 0xc0, 0x00, 0x3f, 0x00, 0xc0, 0x58, 0x3f, 0x08, 0x00, 0x00, 0x00, 
	0x00, 0xc0, 0x07, 0x3f, 0x00, 0xc0, 0x4b, 0x3f, 0x0a, 0x00, 0x00, 0x00, 0x00, 0x80, 0xfe, 0x3e, 
	0x00, 0x40, 0x4e, 0x3f, 0x09, 0x00, 0x00, 0x00, 0x00, 0x80, 0xea, 0x3e, 0x00, 0x40, 0x58, 0x3f, 
	0x10, 0x00, 0x00, 0x00, 0x00, 0x80, 0xdb, 0x3e, 0x00, 0xc0, 0x77, 0x3f, 0x22, 0x00, 0x00, 0x00, 
	0x00, 0x40, 0x04, 0x3f, 0x00, 0xc0, 0x78, 0x3f, 0x15, 0x00, 0x00, 0x00, 0x00, 0x40, 0x0c, 0x3f, 
	0x00, 0x40, 0x55, 0x3f, 0x0e, 0x00, 0x00, 0x00, 0x00, 0xc0, 0x07, 0x3f, 0x00, 0xc0, 0x4b, 0x3f, 
	0x0a, 0x00, 0x00, 0x00, 0xfb, 0xff, 0xff, 0xff, 0x00, 0x80, 0xec, 0x3e, 0x00, 0xc0, 0x4d, 0x3f, 
	0x0d, 0x00, 0x00, 0x00, 0x00, 0x80, 0xda, 0x3e, 0x00, 0x40, 0x4b, 0x3f, 0x0c, 0x00, 0x00, 0x00, 
	0x00, 0x80, 0xd5, 0x3e, 0x00, 0x40, 0x55, 0x3f, 0x0b, 0x00, 0x00, 0x00, 0x00, 0x80, 0xea, 0x3e, 
	0x00, 0x40, 0x58, 0x3f, 0x10, 0x00, 0x00, 0x00, 0x00, 0x80, 0xfe, 0x3e, 0x00, 0x40, 0x4e, 0x3f, 
	0x09, 0x00, 0x00, 0x00, 0xfd, 0xff, 0xff, 0xff, 0x00, 0x40, 0x0c, 0x3f, 0x00, 0x40, 0x55, 0x3f, 
	0x0e, 0x00, 0x00, 0x00, 0x00, 0xc0, 0x0e, 0x3f, 0x00, 0x40, 0x47, 0x3f, 0x07, 0x00, 0x00, 0x00, 
	0x00, 0xc0, 0x07, 0x3f, 0x00, 0xc0, 0x4b, 0x3f, 0x0a, 0x00, 0x00, 0x00, 0xfa, 0xff, 0xff, 0xff, 
	0x00, 0xc0, 0x20, 0x3f, 0x00, 0x40, 0x3a, 0x3f, 0x0f, 0x00, 0x00, 0x00, 0x00, 0xc0, 0x16, 0x3f, 
	0x00, 0x40, 0x2f, 0x3f, 0x04, 0x00, 0x00, 0x00, 0x00, 0xc0, 0x16, 0x3f, 0x00, 0x40, 0x38, 0x3f, 
	0x02, 0x00, 0x00, 0x00, 0x00, 0x40, 0x1d, 0x3f, 0x00, 0x40, 0x45, 0x3f, 0x00, 0x00, 0x00, 0x00, 
	0x00, 0xc0, 0x39, 0x3f, 0x00, 0xc0, 0x54, 0x3f, 0x28, 0x00, 0x00, 0x00, 0x00, 0xc0, 0x40, 0x3f, 
	0x00, 0x40, 0x3f, 0x3f, 0x27, 0x00, 0x00, 0x00, 0xf9, 0xff, 0xff, 0xff, 0x00, 0xc0, 0x40, 0x3f, 
	0x00, 0xc0, 0x69, 0x3f, 0x13, 0x00, 0x00, 0x00, 0x00, 0x40, 0x50, 0x3f, 0x00, 0xc0, 0x79, 0x3f, 
	0x12, 0x00, 0x00, 0x00, 0x00, 0x40, 0x66, 0x3f, 0x00, 0xc0, 0x7a, 0x3f, 0x11, 0x00, 0x00, 0x00, 
	0x00, 0xc0, 0x76, 0x3f, 0x00, 0x40, 0x6b, 0x3f, 0x66, 0x00, 0x00, 0x00, 0x00, 0x40, 0x77, 0x3f, 
	0x00, 0xc0, 0x54, 0x3f, 0x17, 0x00, 0x00, 0x00, 0x00, 0xc0, 0x51, 0x3f, 0x00, 0x40, 0x44, 0x3f, 
	0x16, 0x00, 0x00, 0x00, 0x00, 0x40, 0x41, 0x3f, 0x00, 0x40, 0x53, 0x3f, 0x18, 0x00, 0x00, 0x00, 
	0xfd, 0xff, 0xff, 0xff, 0x00, 0x40, 0x0c, 0x3f, 0x00, 0x40, 0x55, 0x3f, 0x0e, 0x00, 0x00, 0x00, 
	0x00, 0x40, 0x04, 0x3f, 0x00, 0xc0, 0x78, 0x3f, 0x15, 0x00, 0x00, 0x00, 0x00, 0xc0, 0x19, 0x3f, 
	0x00, 0xc0, 0x72, 0x3f, 0x14, 0x00, 0x00, 0x00, 0xfd, 0xff, 0xff, 0xff, 0x00, 0xc0, 0x51, 0x3f, 
	0x00, 0x40, 0x44, 0x3f, 0x16, 0x00, 0x00, 0x00, 0x00, 0x40, 0x77, 0x3f, 0x00, 0xc0, 0x54, 0x3f, 
	0x17, 0x00, 0x00, 0x00, 0x00, 0x40, 0x68, 0x3f, 0x00, 0xc0, 0x44, 0x3f, 0x19, 0x00, 0x00, 0x00, 
	0xfa, 0xff, 0xff, 0xff, 0x00, 0x40, 0x22, 0x3f, 0x00, 0xc0, 0x00, 0x3f, 0x1c, 0x00, 0x00, 0x00, 
	0x00, 0x40, 0x32, 0x3f, 0x00, 0x40, 0x01, 0x3f, 0x1b, 0x00, 0x00, 0x00, 0x00, 0x40, 0x3e, 0x3f, 
	0x00, 0x80, 0xec, 0x3e, 0x1a, 0x00, 0x00, 0x00, 0x00, 0x40, 0x33, 0x3f, 0x00, 0x80, 0xb3, 0x3e, 
	0x1d, 0x00, 0x00, 0x00, 0x00, 0x40, 0x17, 0x3f, 0x00, 0x80, 0xc9, 0x3e, 0x20, 0x00, 0x00, 0x00, 
	0x00, 0xc0, 0x16, 0x3f, 0x00, 0x80, 0xea, 0x3e, 0x1f, 0x00, 0x00, 0x00, 0xfd, 0xff, 0xff, 0xff, 
	0x00, 0x40, 0x3e, 0x3f, 0x00, 0x80, 0xec, 0x3e, 0x1a, 0x00, 0x00, 0x00, 0x00, 0x40, 0x3e, 0x3f, 
	0x00, 0x80, 0xcb, 0x3e, 0x1e, 0x00, 0x00, 0x00, 0x00, 0x40, 0x33, 0x3f, 0x00, 0x80, 0xb3, 0x3e, 
	0x1d, 0x00, 0x00, 0x00, 0xfd, 0xff, 0xff, 0xff, 0x00, 0x40, 0x17, 0x3f, 0x00, 0x80, 0xc9, 0x3e, 
	0x20, 0x00, 0x00, 0x00, 0x00, 0x40, 0x33, 0x3f, 0x00, 0x80, 0xb3, 0x3e, 0x1d, 0x00, 0x00, 0x00, 
	0x00, 0xc0, 0x22, 0x3f, 0x00, 0x80, 0xb3, 0x3e, 0x21, 0x00, 0x00, 0x00, 0xfc, 0xff, 0xff, 0xff, 
	0x00, 0x80, 0xb2, 0x3e, 0x00, 0x40, 0x6f, 0x3f, 0x23, 0x00, 0x00, 0x00, 0x00, 0x80, 0xdb, 0x3e, 
	0x00, 0xc0, 0x77, 0x3f, 0x22, 0x00, 0x00, 0x00, 0x00, 0x80, 0xea, 0x3e, 0x00, 0x40, 0x58, 0x3f, 
	0x10, 0x00, 0x00, 0x00, 0x00, 0x80, 0xd5, 0x3e, 0x00, 0x40, 0x55, 0x3f, 0x0b, 0x00, 0x00, 0x00, 
	0xfd, 0xff, 0xff, 0xff, 0x00, 0xc0, 0x1e, 0x3f, 0x00, 0x40, 0x24, 0x3f, 0x24, 0x00, 0x00, 0x00, 
	0x00, 0x40, 0x41, 0x3f, 0x00, 0x40, 0x29, 0x3f, 0x26, 0x00, 0x00, 0x00, 0x00, 0xc0, 0x39, 0x3f, 
	0x00, 0xc0, 0x13, 0x3f, 0x25, 0x00, 0x00, 0x00, 0xfd, 0xff, 0xff, 0xff, 0x00, 0x40, 0x1d, 0x3f, 
	0x00, 0x40, 0x45, 0x3f, 0x00, 0x00, 0x00, 0x00, 0x00, 0x40, 0x2c, 0x3f, 0x00, 0x40, 0x66, 0x3f, 
	0x29, 0x00, 0x00, 0x00, 0x00, 0xc0, 0x39, 0x3f, 0x00, 0xc0, 0x54, 0x3f, 0x28, 0x00, 0x00, 0x00, 
	0x0e, 0x00, 0x00, 0x00, 0x00, 0x00, 0xc6, 0x3d, 0x00, 0x00, 0xb8, 0x3c, 0x2b, 0x00, 0x00, 0x00, 
	0x00, 0x00, 0xc6, 0x3d, 0x00, 0xc0, 0x7a, 0x3f, 0x2a, 0x00, 0x00, 0x00, 0x00, 0x00, 0x07, 0x3e, 
	0x00, 0x00, 0xb8, 0x3c, 0x2c, 0x00, 0x00, 0x00, 0x00, 0x00, 0x07, 0x3e, 0x00, 0xc0, 0x7a, 0x3f, 
	0x39, 0x00, 0x00, 0x00, 0x00, 0x00, 0x2b, 0x3e, 0x00, 0x00, 0xb8, 0x3c, 0x2e, 0x00, 0x00, 0x00, 
	0x00, 0x00, 0x2b, 0x3e, 0x00, 0xc0, 0x7a, 0x3f, 0x2d, 0x00, 0x00, 0x00, 0x00, 0x00, 0x4f, 0x3e, 
	0x00, 0x00, 0xb8, 0x3c, 0x2f, 0x00, 0x00, 0x00, 0x00, 0x00, 0x4f, 0x3e, 0x00, 0x40, 0x7a, 0x3f, 
	0x35, 0x00, 0x00, 0x00, 0x00, 0x00, 0x73, 0x3e, 0x00, 0x00, 0xb8, 0x3c, 0x36, 0x00, 0x00, 0x00, 
	0x00, 0x00, 0x73, 0x3e, 0x00, 0x40, 0x7a, 0x3f, 0x3a, 0x00, 0x00, 0x00, 0x00, 0x80, 0x8b, 0x3e, 
	0x00, 0x00, 0xb8, 0x3c, 0x33, 0x00, 0x00, 0x00, 0x00, 0x80, 0x8b, 0x3e, 0x00, 0x40, 0x7a, 0x3f, 
	0x32, 0x00, 0x00, 0x00, 0x00, 0x80, 0x9d, 0x3e, 0x00, 0x00, 0xb8, 0x3c, 0x34, 0x00, 0x00, 0x00, 
	0x00, 0x80, 0x9e, 0x3e, 0x00, 0x40, 0x7a, 0x3f, 0x67, 0x00, 0x00, 0x00, 0xfc, 0xff, 0xff, 0xff, 
	0x00, 0x00, 0x7c, 0x3d, 0x00, 0xc0, 0x7a, 0x3f, 0x30, 0x00, 0x00, 0x00, 0x00, 0x00, 0xc6, 0x3d, 
	0x00, 0x00, 0xb8, 0x3c, 0x2b, 0x00, 0x00, 0x00, 0x00, 0x00, 0x74, 0x3d, 0x00, 0x00, 0xb8, 0x3c, 
	0x31, 0x00, 0x00, 0x00, 0x00, 0x00, 0xd8, 0x3c, 0x00, 0xc0, 0x7a, 0x3f, 0x37, 0x00, 0x00, 0x00, 
	0xfd, 0xff, 0xff, 0xff, 0x00, 0x00, 0xd8, 0x3c, 0x00, 0xc0, 0x7a, 0x3f, 0x37, 0x00, 0x00, 0x00, 
	0x00, 0x00, 0x74, 0x3d, 0x00, 0x00, 0xb8, 0x3c, 0x31, 0x00, 0x00, 0x00, 0x00, 0x00, 0xc8, 0x3c, 
	0x00, 0x00, 0xb8, 0x3c, 0x38, 0x00, 0x00, 0x00, 0x0a, 0x00, 0x00, 0x00, 0x00, 0xc0, 0x48, 0x3f, 
	0x00, 0x80, 0xc1, 0x3e, 0x3c, 0x00, 0x00, 0x00, 0x00, 0xc0, 0x79, 0x3f, 0x00, 0x80, 0xc1, 0x3e, 
	0x3b, 0x00, 0x00, 0x00, 0x00, 0xc0, 0x48, 0x3f, 0x00, 0x80, 0xed, 0x3e, 0x3d, 0x00, 0x00, 0x00, 
	0x00, 0xc0, 0x79, 0x3f, 0x00, 0x80, 0xed, 0x3e, 0x49, 0x00, 0x00, 0x00, 0x00, 0xc0, 0x48, 0x3f, 
	0x00, 0x40, 0x0c, 0x3f, 0x3f, 0x00, 0x00, 0x00, 0x00, 0xc0, 0x79, 0x3f, 0x00, 0x40, 0x0c, 0x3f, 
	0x3e, 0x00, 0x00, 0x00, 0x00, 0xc0, 0x48, 0x3f, 0x00, 0x40, 0x22, 0x3f, 0x40, 0x00, 0x00, 0x00, 
	0x00, 0xc0, 0x79, 0x3f, 0x00, 0x40, 0x22, 0x3f, 0x46, 0x00, 0x00, 0x00, 0x00, 0xc0, 0x48, 0x3f, 
	0x00, 0x40, 0x38, 0x3f, 0x47, 0x00, 0x00, 0x00, 0x00, 0xc0, 0x79, 0x3f, 0x00, 0x40, 0x38, 0x3f, 
	0x68, 0x00, 0x00, 0x00, 0xfc, 0xff, 0xff, 0xff, 0x00, 0xc0, 0x79, 0x3f, 0x00, 0x80, 0x95, 0x3e, 
	0x41, 0x00, 0x00, 0x00, 0x00, 0xc0, 0x48, 0x3f, 0x00, 0x80, 0xc1, 0x3e, 0x3c, 0x00, 0x00, 0x00, 
	0x00, 0xc0, 0x48, 0x3f, 0x00, 0x80, 0x95, 0x3e, 0x42, 0x00, 0x00, 0x00, 0x00, 0xc0, 0x79, 0x3f, 
	0x00, 0x00, 0x53, 0x3e, 0x48, 0x00, 0x00, 0x00, 0xfb, 0xff, 0xff, 0xff, 0x00, 0xc0, 0x48, 0x3f, 
	0x00, 0x00, 0x53, 0x3e, 0x45, 0x00, 0x00, 0x00, 0x00, 0xc0, 0x48, 0x3f, 0x00, 0x00, 0xf6, 0x3d, 
	0x44, 0x00, 0x00, 0x00, 0x00, 0xc0, 0x79, 0x3f, 0x00, 0x00, 0xf6, 0x3d, 0x43, 0x00, 0x00, 0x00, 
	0x00, 0xc0, 0x79, 0x3f, 0x00, 0x00, 0x53, 0x3e, 0x48, 0x00, 0x00, 0x00, 0x00, 0xc0, 0x48, 0x3f, 
	0x00, 0x80, 0x95, 0x3e, 0x42, 0x00, 0x00, 0x00, 0xfc, 0xff, 0xff, 0xff, 0x00, 0xc0, 0x48, 0x3f, 
	0x00, 0x00, 0xf6, 0x3d, 0x44, 0x00, 0x00, 0x00, 0x00, 0xc0, 0x48, 0x3f, 0x00, 0x00, 0x0c, 0x3d, 
	0x4b, 0x00, 0x00, 0x00, 0x00, 0xc0, 0x79, 0x3f, 0x00, 0x00, 0x0c, 0x3d, 0x4a, 0x00, 0x00, 0x00, 
	0x00, 0xc0, 0x79, 0x3f, 0x00, 0x00, 0xf6, 0x3d, 0x43, 0x00, 0x00, 0x00, 0xfa, 0xff, 0xff, 0xff, 
	0x00, 0xc0, 0x0b, 0x3f, 0x00, 0x00, 0x9e, 0x3d, 0x4d, 0x00, 0x00, 0x00, 0x00, 0x40, 0x1b, 0x3f, 
	0x00, 0x00, 0x88, 0x3c, 0x4c, 0x00, 0x00, 0x00, 0x00, 0x40, 0x31, 0x3f, 0x00, 0x00, 0x88, 0x3c, 
	0x4e, 0x00, 0x00, 0x00, 0x00, 0xc0, 0x40, 0x3f, 0x00, 0x00, 0x27, 0x3e, 0x50, 0x00, 0x00, 0x00, 
	0x00, 0x40, 0x1b, 0x3f, 0x00, 0x00, 0x65, 0x3e, 0x4f, 0x00, 0x00, 0x00, 0x00, 0xc0, 0x0b, 0x3f, 
	0x00, 0x00, 0x27, 0x3e, 0x51, 0x00, 0x00, 0x00, 0xfd, 0xff, 0xff, 0xff, 0x00, 0x40, 0x1b, 0x3f, 
	0x00, 0x00, 0x65, 0x3e, 0x4f, 0x00, 0x00, 0x00, 0x00, 0xc0, 0x40, 0x3f, 0x00, 0x00, 0x27, 0x3e, 
	0x50, 0x00, 0x00, 0x00, 0x00, 0x40, 0x31, 0x3f, 0x00, 0x00, 0x65, 0x3e, 0x52, 0x00, 0x00, 0x00, 
	0xfd, 0xff, 0xff, 0xff, 0x00, 0xc0, 0x40, 0x3f, 0x00, 0x00, 0x27, 0x3e, 0x50, 0x00, 0x00, 0x00, 
	0x00, 0x40, 0x31, 0x3f, 0x00, 0x00, 0x88, 0x3c, 0x4e, 0x00, 0x00, 0x00, 0x00, 0xc0, 0x40, 0x3f, 
	0x00, 0x00, 0x9e, 0x3d, 0x53, 0x00, 0x00, 0x00, 0xf6, 0xff, 0xff, 0xff, 0x00, 0x80, 0xee, 0x3e, 
	0x00, 0x80, 0x91, 0x3e, 0x54, 0x00, 0x00, 0x00, 0x00, 0x80, 0xb3, 0x3e, 0x00, 0x80, 0xa4, 0x3e, 
	0x56, 0x00, 0x00, 0x00, 0x00, 0x80, 0xd2, 0x3e, 0x00, 0x80, 0xc8, 0x3e, 0x55, 0x00, 0x00, 0x00, 
	0x00, 0x40, 0x01, 0x3f, 0x00, 0x80, 0xcc, 0x3e, 0x59, 0x00, 0x00, 0x00, 0x00, 0xc0, 0x13, 0x3f, 
	0x00, 0x80, 0xad, 0x3e, 0x58, 0x00, 0x00, 0x00, 0x00, 0x40, 0x15, 0x3f, 0x00, 0x00, 0x7b, 0x3e, 
	0x57, 0x00, 0x00, 0x00, 0x00, 0x40, 0x05, 0x3f, 0x00, 0x00, 0x33, 0x3e, 0x5e, 0x00, 0x00, 0x00, 
	0x00, 0x80, 0xdb, 0x3e, 0x00, 0x00, 0x2b, 0x3e, 0x60, 0x00, 0x00, 0x00, 0x00, 0x80, 0xb5, 0x3e, 
	0x00, 0x00, 0x69, 0x3e, 0x5d, 0x00, 0x00, 0x00, 0x00, 0x80, 0xb3, 0x3e, 0x00, 0x80, 0xa4, 0x3e, 
	0x56, 0x00, 0x00, 0x00, 0xf6, 0xff, 0xff, 0xff, 0x00, 0x80, 0xec, 0x3e, 0x00, 0xc0, 0x0c, 0x3f, 
	0x5b, 0x00, 0x00, 0x00, 0x00, 0xc0, 0x06, 0x3f, 0x00, 0x80, 0xe0, 0x3e, 0x5a, 0x00, 0x00, 0x00, 
	0x00, 0x80, 0xda, 0x3e, 0x00, 0x80, 0xd8, 0x3e, 0x5c, 0x00, 0x00, 0x00, 0x00, 0x80, 0xae, 0x3e, 
	0x00, 0x80, 0xf5, 0x3e, 0x5f, 0x00, 0x00, 0x00, 0x00, 0x80, 0xab, 0x3e, 0x00, 0x40, 0x15, 0x3f, 
	0x64, 0x00, 0x00, 0x00, 0x00, 0x80, 0xcb, 0x3e, 0x00, 0x40, 0x29, 0x3f, 0x61, 0x00, 0x00, 0x00, 
	0x00, 0x80, 0xfe, 0x3e, 0x00, 0x40, 0x2d, 0x3f, 0x62, 0x00, 0x00, 0x00, 0x00, 0x40, 0x15, 0x3f, 
	0x00, 0x40, 0x1e, 0x3f, 0x63, 0x00, 0x00, 0x00, 0x00, 0xc0, 0x16, 0x3f, 0x00, 0x40, 0x04, 0x3f, 
	0x65, 0x00, 0x00, 0x00, 0x00, 0xc0, 0x06, 0x3f, 0x00, 0x80, 0xe0, 0x3e, 0x5a, 0x00, 0x00, 0x00, 
	0xfd, 0xff, 0xff, 0xff, 0x00, 0x00, 0x7c, 0x3d, 0x00, 0xc0, 0x7a, 0x3f, 0x30, 0x00, 0x00, 0x00, 
	0x00, 0x00, 0xc6, 0x3d, 0x00, 0xc0, 0x7a, 0x3f, 0x2a, 0x00, 0x00, 0x00, 0x00, 0x00, 0xc6, 0x3d, 
	0x00, 0x00, 0xb8, 0x3c, 0x2b, 0x00, 0x00, 0x00, 0xfd, 0xff, 0xff, 0xff, 0x00, 0xc0, 0x79, 0x3f, 
	0x00, 0x80, 0x95, 0x3e, 0x41, 0x00, 0x00, 0x00, 0x00, 0xc0, 0x79, 0x3f, 0x00, 0x80, 0xc1, 0x3e, 
	0x3b, 0x00, 0x00, 0x00, 0x00, 0xc0, 0x48, 0x3f, 0x00, 0x80, 0xc1, 0x3e, 0x3c, 0x00, 0x00, 0x00, 
	0x00, 0x00, 0x00, 0x00, 
};

#endif
